{
  "0": "\u0000",
  "1": "\u0001",
  "2": "\u0002",
  "3": "\u0003",
  "4": "\u0004",
  "5": "\u0005",
  "6": "\u0006",
  "7": "\u0007",
  "8": "\b",
  "9": "\t",
  "10": "\n",
  "11": "\u000b",
  "12": "\f",
  "13": "\r",
  "14": "\u000e",
  "15": "\u000f",
  "16": "\u0010",
  "17": "\u0011",
  "18": "\u0012",
  "19": "\u0013",
  "20": "\u0014",
  "21": "\u0015",
  "22": "\u0016",
  "23": "\u0017",
  "24": "\u0018",
  "25": "\u0019",
  "26": "\u001a",
  "27": "\u001b",
  "28": "\u001c",
  "29": "\u001d",
  "30": "\u001e",
  "31": "\u001f",
  "32": " ",
  "33": "!",
  "34": "\"",
  "35": "#",
  "36": "$",
  "37": "%",
  "38": "&",
  "39": "'",
  "40": "(",
  "41": ")",
  "42": "*",
  "43": "+",
  "44": ",",
  "45": "-",
  "46": ".",
  "47": "/",
  "48": "0",
  "49": "1",
  "50": "2",
  "51": "3",
  "52": "4",
  "53": "5",
  "54": "6",
  "55": "7",
  "56": "8",
  "57": "9",
  "58": ":",
  "59": ";",
  "60": "<",
  "61": "=",
  "62": ">",
  "63": "?",
  "64": "@",
  "65": "A",
  "66": "B",
  "67": "C",
  "68": "D",
  "69": "E",
  "70": "F",
  "71": "G",
  "72": "H",
  "73": "I",
  "74": "J",
  "75": "K",
  "76": "L",
  "77": "M",
  "78": "N",
  "79": "O",
  "80": "P",
  "81": "Q",
  "82": "R",
  "83": "S",
  "84": "T",
  "85": "U",
  "86": "V",
  "87": "W",
  "88": "X",
  "89": "Y",
  "90": "Z",
  "91": "[",
  "92": "\\",
  "93": "]",
  "94": "^",
  "95": "_",
  "96": "`",
  "97": "a",
  "98": "b",
  "99": "c",
  "100": "d",
  "101": "e",
  "102": "f",
  "103": "g",
  "104": "h",
  "105": "i",
  "106": "j",
  "107": "k",
  "108": "l",
  "109": "m",
  "110": "n",
  "111": "o",
  "112": "p",
  "113": "q",
  "114": "r",
  "115": "s",
  "116": "t",
  "117": "u",
  "118": "v",
  "119": "w",
  "120": "x",
  "121": "y",
  "122": "z",
  "123": "{",
  "124": "|",
  "125": "}",
  "126": "~",
  "127": "",
  "128": "�",
  "129": "�",
  "130": "�",
  "131": "�",
  "132": "�",
  "133": "�",
  "134": "�",
  "135": "�",
  "136": "�",
  "137": "�",
  "138": "�",
  "139": "�",
  "140": "�",
  "141": "�",
  "142": "�",
  "143": "�",
  "144": "�",
  "145": "�",
  "146": "�",
  "147": "�",
  "148": "�",
  "149": "�",
  "150": "�",
  "151": "�",
  "152": "�",
  "153": "�",
  "154": "�",
  "155": "�",
  "156": "�",
  "157": "�",
  "158": "�",
  "159": "�",
  "160": "�",
  "161": "�",
  "162": "�",
  "163": "�",
  "164": "�",
  "165": "�",
  "166": "�",
  "167": "�",
  "168": "�",
  "169": "�",
  "170": "�",
  "171": "�",
  "172": "�",
  "173": "�",
  "174": "�",
  "175": "�",
  "176": "�",
  "177": "�",
  "178": "�",
  "179": "�",
  "180": "�",
  "181": "�",
  "182": "�",
  "183": "�",
  "184": "�",
  "185": "�",
  "186": "�",
  "187": "�",
  "188": "�",
  "189": "�",
  "190": "�",
  "191": "�",
  "192": "�",
  "193": "�",
  "194": "�",
  "195": "�",
  "196": "�",
  "197": "�",
  "198": "�",
  "199": "�",
  "200": "�",
  "201": "�",
  "202": "�",
  "203": "�",
  "204": "�",
  "205": "�",
  "206": "�",
  "207": "�",
  "208": "�",
  "209": "�",
  "210": "�",
  "211": "�",
  "212": "�",
  "213": "�",
  "214": "�",
  "215": "�",
  "216": "�",
  "217": "�",
  "218": "�",
  "219": "�",
  "220": "�",
  "221": "�",
  "222": "�",
  "223": "�",
  "224": "�",
  "225": "�",
  "226": "�",
  "227": "�",
  "228": "�",
  "229": "�",
  "230": "�",
  "231": "�",
  "232": "�",
  "233": "�",
  "234": "�",
  "235": "�",
  "236": "�",
  "237": "�",
  "238": "�",
  "239": "�",
  "240": "�",
  "241": "�",
  "242": "�",
  "243": "�",
  "244": "�",
  "245": "�",
  "246": "�",
  "247": "�",
  "248": "�",
  "249": "�",
  "250": "�",
  "251": "�",
  "252": "�",
  "253": "�",
  "254": "�",
  "255": "�",
  "256": "<|endoftext|>",
  "257": "he",
  "258": " t",
  "259": " a",
  "260": " s",
  "261": " w",
  "262": "nd",
  "263": " the",
  "264": "ed",
  "265": " b",
  "266": " to",
  "267": " and",
  "268": " h",
  "269": " f",
  "270": "in",
  "271": " wa",
  "272": " T",
  "273": "it",
  "274": "re",
  "275": "ou",
  "276": " l",
  "277": " d",
  "278": " c",
  "279": " p",
  "280": "ay",
  "281": " was",
  "282": "er",
  "283": " m",
  "284": "om",
  "285": " he",
  "286": " The",
  "287": "is",
  "288": " n",
  "289": "on",
  "290": "ar",
  "291": "im",
  "292": " sa",
  "293": "ll",
  "294": "id",
  "295": " ha",
  "296": " g",
  "297": " S",
  "298": "at",
  "299": "ing",
  "300": "ot",
  "301": "en",
  "302": "an",
  "303": "le",
  "304": "or",
  "305": "ir",
  "306": " H",
  "307": "am",
  "308": "et",
  "309": " it",
  "310": " th",
  "311": "ig",
  "312": " They",
  "313": "il",
  "314": " in",
  "315": " He",
  "316": " pl",
  "317": " \"",
  "318": "ow",
  "319": "ver",
  "320": "ri",
  "321": " u",
  "322": "ut",
  "323": " day",
  "324": " said",
  "325": "ith",
  "326": "pp",
  "327": " play",
  "328": " be",
  "329": "On",
  "330": " with",
  "331": " o",
  "332": " y",
  "333": " her",
  "334": " r",
  "335": "oo",
  "336": "ked",
  "337": "ce",
  "338": " his",
  "339": " She",
  "340": " I",
  "341": "ld",
  "342": " st",
  "343": " Tim",
  "344": "ke",
  "345": " e",
  "346": "nt",
  "347": "ck",
  "348": " big",
  "349": "very",
  "350": " you",
  "351": "ve",
  "352": "st",
  "353": " happ",
  "354": " on",
  "355": "end",
  "356": "un",
  "357": "all",
  "358": "ily",
  "359": "riend",
  "360": " friend",
  "361": " L",
  "362": " up",
  "363": " they",
  "364": " want",
  "365": " we",
  "366": " had",
  "367": " not",
  "368": "her",
  "369": " li",
  "370": "itt",
  "371": " do",
  "372": " of",
  "373": " B",
  "374": "ad",
  "375": "es",
  "376": " happy",
  "377": " M",
  "378": "ent",
  "379": " very",
  "380": " that",
  "381": "One",
  "382": " saw",
  "383": " mom",
  "384": "ould",
  "385": "'s",
  "386": "se",
  "387": " for",
  "388": "ittle",
  "389": " little",
  "390": " so",
  "391": " she",
  "392": " sh",
  "393": "ime",
  "394": " k",
  "395": " time",
  "396": " ne",
  "397": " nam",
  "398": "ch",
  "399": " there",
  "400": ".\"",
  "401": "ound",
  "402": " bo",
  "403": " named",
  "404": " Lily",
  "405": "ird",
  "406": " sm",
  "407": " wanted",
  "408": " bird",
  "409": " Tom",
  "410": "ved",
  "411": " were",
  "412": " but",
  "413": "The",
  "414": " friends",
  "415": "!\"",
  "416": "out",
  "417": "ht",
  "418": "el",
  "419": "ake",
  "420": "al",
  "421": " an",
  "422": " too",
  "423": "ide",
  "424": " hel",
  "425": "Once",
  "426": " wh",
  "427": " help",
  "428": "ug",
  "429": "ome",
  "430": " went",
  "431": " all",
  "432": " It",
  "433": " A",
  "434": " loo",
  "435": " is",
  "436": " upon",
  "437": " lo",
  "438": "ue",
  "439": "ter",
  "440": "ry",
  "441": "ore",
  "442": "ind",
  "443": "get",
  "444": " fun",
  "445": " toy",
  "446": "ill",
  "447": "ack",
  "448": "gether",
  "449": " at",
  "450": " j",
  "451": " as",
  "452": " did",
  "453": "ame",
  "454": " re",
  "455": " together",
  "456": "ur",
  "457": " cat",
  "458": "ra",
  "459": " dog",
  "460": " se",
  "461": "ly",
  "462": " tre",
  "463": "ood",
  "464": " gir",
  "465": " can",
  "466": "ic",
  "467": " ball",
  "468": "my",
  "469": " girl",
  "470": " could",
  "471": "ard",
  "472": "ted",
  "473": " him",
  "474": " their",
  "475": "ec",
  "476": "ark",
  "477": " ro",
  "478": "way",
  "479": " kn",
  "480": " played",
  "481": "?\"",
  "482": "hed",
  "483": " fr",
  "484": "ain",
  "485": "hen",
  "486": " le",
  "487": " out",
  "488": "um",
  "489": "'t",
  "490": "ax",
  "491": " go",
  "492": " them",
  "493": " are",
  "494": " boy",
  "495": " sad",
  "496": "ul",
  "497": "oug",
  "498": " have",
  "499": " tree",
  "500": " cl",
  "501": " loved",
  "502": "other",
  "503": " back",
  "504": " looked",
  "505": " sp",
  "506": " found",
  "507": "own",
  "508": "one",
  "509": " Max",
  "510": " me",
  "511": " sc",
  "512": " man",
  "513": "are",
  "514": " star",
  "515": " Sue",
  "516": "hing",
  "517": "side",
  "518": " park",
  "519": "ong",
  "520": "op",
  "521": "ful",
  "522": " bec",
  "523": " like",
  "524": " would",
  "525": " liked",
  "526": "elt",
  "527": "round",
  "528": " One",
  "529": " felt",
  "530": "ight",
  "531": " fa",
  "532": " Ben",
  "533": " la",
  "534": " W",
  "535": "ell",
  "536": " make",
  "537": " But",
  "538": "You",
  "539": " asked",
  "540": " new",
  "541": "ice",
  "542": "iled",
  "543": "ss",
  "544": "ared",
  "545": "ag",
  "546": " Sam",
  "547": "ought",
  "548": " see",
  "549": "omet",
  "550": " al",
  "551": " started",
  "552": " ag",
  "553": " came",
  "554": " no",
  "555": " smiled",
  "556": " car",
  "557": " other",
  "558": "ried",
  "559": " somet",
  "560": " good",
  "561": " say",
  "562": " br",
  "563": " small",
  "564": "ade",
  "565": "pot",
  "566": "ob",
  "567": "ings",
  "568": " wor",
  "569": " away",
  "570": "ab",
  "571": "ouse",
  "572": " find",
  "573": "us",
  "574": " ex",
  "575": " from",
  "576": " put",
  "577": "ty",
  "578": " thought",
  "579": " what",
  "580": " made",
  "581": "ened",
  "582": " playing",
  "583": "ie",
  "584": " home",
  "585": "king",
  "586": " wal",
  "587": "ach",
  "588": " something",
  "589": "ia",
  "590": "ile",
  "591": " every",
  "592": " ran",
  "593": " Spot",
  "594": " again",
  "595": " F",
  "596": " co",
  "597": "ave",
  "598": "uc",
  "599": "arn",
  "600": " box",
  "601": " down",
  "602": "dd",
  "603": " toys",
  "604": "ook",
  "605": " J",
  "606": " pr",
  "607": " took",
  "608": " sw",
  "609": " some",
  "610": "if",
  "611": " laug",
  "612": "oud",
  "613": "ust",
  "614": "ew",
  "615": " sun",
  "616": " around",
  "617": "ny",
  "618": " scared",
  "619": " lived",
  "620": " learn",
  "621": " will",
  "622": " my",
  "623": " fl",
  "624": "ure",
  "625": " your",
  "626": "ick",
  "627": "ret",
  "628": "ep",
  "629": " house",
  "630": " when",
  "631": " You",
  "632": " things",
  "633": " bl",
  "634": ",\"",
  "635": "ank",
  "636": "uck",
  "637": " then",
  "638": "pped",
  "639": " Mia",
  "640": "ist",
  "641": "Th",
  "642": " bot",
  "643": " ab",
  "644": "ish",
  "645": " who",
  "646": " get",
  "647": " know",
  "648": "ucy",
  "649": " fe",
  "650": "as",
  "651": " tried",
  "652": " got",
  "653": " knew",
  "654": "ited",
  "655": " lot",
  "656": "uch",
  "657": " says",
  "658": "ally",
  "659": "ap",
  "660": " int",
  "661": " ch",
  "662": "ive",
  "663": " red",
  "664": "Tim",
  "665": "nder",
  "666": "ump",
  "667": "Lily",
  "668": " pret",
  "669": "ous",
  "670": " about",
  "671": " care",
  "672": "fter",
  "673": " dec",
  "674": " So",
  "675": " op",
  "676": "fe",
  "677": " look",
  "678": " D",
  "679": " many",
  "680": "use",
  "681": " un",
  "682": " more",
  "683": "ise",
  "684": "ways",
  "685": " E",
  "686": "nn",
  "687": " exc",
  "688": " Mom",
  "689": " always",
  "690": " pic",
  "691": " po",
  "692": "�",
  "693": " best",
  "694": "qu",
  "695": " any",
  "696": " show",
  "697": " both",
  "698": " Lucy",
  "699": "ite",
  "700": " room",
  "701": " hug",
  "702": "ace",
  "703": "ers",
  "704": "ause",
  "705": " into",
  "706": " water",
  "707": " became",
  "708": " outside",
  "709": " learned",
  "710": " laughed",
  "711": "udd",
  "712": " dad",
  "713": "ided",
  "714": "ant",
  "715": " because",
  "716": " one",
  "717": " gre",
  "718": " pe",
  "719": " decided",
  "720": " And",
  "721": "pr",
  "722": " excited",
  "723": " v",
  "724": "Yes",
  "725": " nice",
  "726": " ho",
  "727": "nna",
  "728": " ke",
  "729": " eat",
  "730": " sor",
  "731": " this",
  "732": "ara",
  "733": " jump",
  "734": " long",
  "735": " feel",
  "736": "They",
  "737": " Bob",
  "738": "Tom",
  "739": " mo",
  "740": " told",
  "741": " run",
  "742": "ull",
  "743": "ink",
  "744": " sur",
  "745": " rock",
  "746": " inside",
  "747": " pretty",
  "748": " sl",
  "749": " sk",
  "750": "lew",
  "751": "iny",
  "752": " take",
  "753": " am",
  "754": " gave",
  "755": " surpr",
  "756": " fast",
  "757": " each",
  "758": " tow",
  "759": "our",
  "760": "ess",
  "761": "ro",
  "762": "ven",
  "763": "ged",
  "764": " sorry",
  "765": " need",
  "766": " or",
  "767": " much",
  "768": " than",
  "769": "urt",
  "770": " how",
  "771": "ised",
  "772": " str",
  "773": "able",
  "774": " under",
  "775": "Wh",
  "776": "og",
  "777": "ge",
  "778": " kind",
  "779": "and",
  "780": " gra",
  "781": " Amy",
  "782": "imal",
  "783": "ving",
  "784": " animal",
  "785": "ft",
  "786": " ta",
  "787": "But",
  "788": " food",
  "789": "etter",
  "790": "Can",
  "791": " walked",
  "792": " We",
  "793": " tr",
  "794": " wat",
  "795": " hand",
  "796": " old",
  "797": " His",
  "798": " list",
  "799": " hig",
  "800": "ff",
  "801": " just",
  "802": " clo",
  "803": " flow",
  "804": " en",
  "805": "rom",
  "806": " cle",
  "807": "ched",
  "808": " didn",
  "809": "urn",
  "810": " ide",
  "811": "eci",
  "812": "Mom",
  "813": "ase",
  "814": " try",
  "815": " idea",
  "816": " dan",
  "817": "ion",
  "818": "here",
  "819": " sky",
  "820": " its",
  "821": "ecial",
  "822": " special",
  "823": " near",
  "824": " flew",
  "825": " us",
  "826": " Anna",
  "827": " tw",
  "828": " happened",
  "829": "pl",
  "830": "gry",
  "831": " fo",
  "832": "ine",
  "833": " fi",
  "834": " sn",
  "835": " Th",
  "836": "Thank",
  "837": " if",
  "838": " cake",
  "839": "ber",
  "840": " fish",
  "841": " animals",
  "842": " stor",
  "843": " over",
  "844": " bug",
  "845": "lf",
  "846": " heard",
  "847": "ate",
  "848": " careful",
  "849": "ex",
  "850": " com",
  "851": "udden",
  "852": "rm",
  "853": " better",
  "854": " lots",
  "855": " by",
  "856": " let",
  "857": " hard",
  "858": " wind",
  "859": " never",
  "860": " hurt",
  "861": " bear",
  "862": " share",
  "863": "ople",
  "864": " Every",
  "865": " dre",
  "866": "uddenly",
  "867": "more",
  "868": " anymore",
  "869": " even",
  "870": " te",
  "871": "ort",
  "872": " tal",
  "873": "pec",
  "874": " fly",
  "875": " Sara",
  "876": " safe",
  "877": " love",
  "878": "ady",
  "879": " bu",
  "880": " end",
  "881": " don",
  "882": " K",
  "883": " fore",
  "884": "\n\n",
  "885": " give",
  "886": " people",
  "887": " after",
  "888": " clean",
  "889": "uff",
  "890": " proud",
  "891": " opened",
  "892": "bed",
  "893": "'m",
  "894": " high",
  "895": " gr",
  "896": " fam",
  "897": " bad",
  "898": " door",
  "899": " surprised",
  "900": " Then",
  "901": "itty",
  "902": "ak",
  "903": " turn",
  "904": "As",
  "905": " gl",
  "906": "age",
  "907": " From",
  "908": "ummy",
  "909": "ough",
  "910": " ground",
  "911": " clim",
  "912": " Her",
  "913": " thanked",
  "914": " im",
  "915": " When",
  "916": "iz",
  "917": " blue",
  "918": " call",
  "919": " book",
  "920": "kay",
  "921": "arden",
  "922": " garden",
  "923": "ild",
  "924": " far",
  "925": " ma",
  "926": " ever",
  "927": " way",
  "928": "pected",
  "929": " hugged",
  "930": " che",
  "931": " shiny",
  "932": " col",
  "933": " picked",
  "934": "Let",
  "935": " smile",
  "936": " mag",
  "937": " loud",
  "938": " cu",
  "939": " off",
  "940": " should",
  "941": " come",
  "942": " In",
  "943": "expected",
  "944": " unexpected",
  "945": "xt",
  "946": " next",
  "947": " stick",
  "948": " place",
  "949": " walk",
  "950": " N",
  "951": "ture",
  "952": " family",
  "953": "hes",
  "954": "em",
  "955": " qu",
  "956": " color",
  "957": "by",
  "958": " P",
  "959": " still",
  "960": "ip",
  "961": " unt",
  "962": " strong",
  "963": " great",
  "964": " boat",
  "965": " app",
  "966": "les",
  "967": " hat",
  "968": "oy",
  "969": " happily",
  "970": " bro",
  "971": "ool",
  "972": " until",
  "973": " jumped",
  "974": " town",
  "975": " ca",
  "976": " frog",
  "977": "dy",
  "978": " kid",
  "979": " helped",
  "980": " Sally",
  "981": " forest",
  "982": "ies",
  "983": " sto",
  "984": "orn",
  "985": "ct",
  "986": " doll",
  "987": "aut",
  "988": " squ",
  "989": "ary",
  "990": " Kitty",
  "991": " beaut",
  "992": " listen",
  "993": " showed",
  "994": " met",
  "995": " now",
  "996": "No",
  "997": "uffy",
  "998": " par",
  "999": " magic"
}